fe48 
ffc4 
fda8 
ff31 
001d 
fd52 
ff48 
fea4 
ffc0 
013d 
0047 
ff66 
fdbd 
fcea 
0059 
0066 
0014 
003a 
feaa 
fd94 
fe9f 
fea9 
019c 
008f 
ffed 
0003 
0081 
ff76 
00a9 
fee3 
02e1 
fe62 
004e 
fd6f 
ff45 
ff9e 
ffe4 
010a 
fd0f 
00a9 
ff45 
ff22 
02d1 
fd2a 
0027 
00ca 
00e4 
0036 
ffb3 
028e 
02d2 
028b 
01f6 
fe6f 
ff3a 
02d7 
01c2 
0029 
0036 
fdb3 
00dd 
fe49 
003b 
ffca 
fd07 
005f 
fe07 
00ad 
0035 
ff76 
fe39 
fe08 
0148 
fe12 
fefa 
004f 
fef9 
ffce 
ff5e 
ff43 
0008 
0079 
ff0f 
feac 
ff4e 
fee6 
ff59 
fec3 
0020 
ffc5 
fffa 
ffbd 
0189 
ffc5 
000d 
005b 
fed1 
00cc 
01ac 
fe9a 
00c6 
fdc7 
fdb2 
ffc2 
ff74 
feca 
ff7b 
ff80 
fd70 
fe7d 
008a 
ff43 
002d 
fe5c 
fe73 
01b6 
ff72 
004e 
febb 
ff8a 
01b0 
0132 
ff35 
00c0 
002f 
0088 
0076 
0230 
febf 
fe5e 
ff6c 
ff46 
fedd 
00b1 
ff42 
ffd2 
fd50 
0013 
ff3e 
fe17 
ff42 
009c 
0053 
0130 
fe27 
ffc4 
00cc 
017d 
ff4f 
ff45 
fd7f 
00d7 
fe3c 
ffe3 
fe30 
022e 
010d 
ff95 
fe4b 
fe23 
0089 
062d 
086e 
06e1 
04ac 
0158 
008f 
ffdb 
0195 
fdc8 
ffe0 
fe03 
00af 
ffda 
0076 
0043 
014b 
fece 
fee1 
ffde 
ffd0 
0068 
01ca 
feea 
fecc 
fd0e 
fdca 
ff0f 
fe25 
feaf 
fd71 
fe58 
fcfd 
009f 
fe54 
ffe4 
0100 
017c 
00ae 
ffb3 
004a 
00c5 
ffc5 
fd70 
0002 
017b 
00e0 
01b8 
0287 
0088 
ff51 
fd1d 
fffb 
fdf2 
ff95 
ff23 
fd71 
fbc9 
fc7d 
feec 
ff78 
fe2a 
0026 
fee4 
ffed 
ff97 
00bd 
0077 
fea1 
ff66 
010e 
ff99 
fe81 
fea8 
ffa6 
0144 
00c8 
025c 
01c1 
0284 
00ea 
009d 
009a 
007d 
0027 
0095 
0001 
0197 
ff51 
01b2 
002d 
0159 
0078 
fff6 
011d 
ff17 
ff49 
fe73 
ff5b 
fdef 
ffc6 
01ff 
025d 
0367 
019b 
fefc 
0059 
037a 
02f2 
036c 
0202 
00dd 
ffda 
fe43 
0087 
fe85 
ff56 
feb5 
ff45 
ffa4 
fd8e 
ff72 
00ee 
0320 
02b4 
fd4d 
fd59 
fef3 
ff22 
00d7 
fddd 
fec0 
fdad 
000c 
feaf 
0082 
02c0 
00d1 
00fd 
fe5d 
01b3 
0204 
019c 
ff39 
0072 
ffeb 
0088 
017f 
023f 
ff32 
ff22 
ff21 
0114 
fe09 
fd94 
fff9 
fe6d 
fd0e 
002e 
ff96 
fe8e 
ffb3 
0045 
00dc 
fe2b 
014f 
000b 
01b2 
014e 
fff2 
0116 
ffb2 
0020 
fde9 
ffa6 
ffcc 
ff85 
000a 
00c4 
010c 
ff36 
ffb5 
0164 
0233 
0084 
0055 
01bd 
007e 
0011 
0298 
015c 
0194 
0118 
007f 
ff86 
ffa6 
005d 
0109 
ffb2 
00d5 
ff13 
0056 
fece 
ff0a 
01e4 
ff62 
ff03 
ffda 
fedd 
017c 
fe84 
019f 
fee3 
fe0e 
0073 
0086 
0109 
ff11 
ff1d 
0057 
0041 
ff6b 
0085 
0198 
0059 
0058 
00d8 
fec6 
feb0 
00a1 
ff4d 
017c 
00b7 
fe70 
ffc7 
008e 
ff04 
0154 
fea2 
00ef 
ff97 
fe9d 
001b 
fef2 
ff1e 
fffc 
ff8f 
ff21 
ff51 
00f8 
fee7 
ff0d 
0231 
02cd 
008f 
01a3 
01fc 
0134 
feb7 
0124 
feec 
ffa0 
00dc 
0160 
0081 
ffa9 
fdbe 
ff69 
00d8 
00fb 
fe25 
000b 
ff80 
ffaa 
ffa1 
0016 
0036 
fea2 
fd58 
0262 
0023 
ffed 
0053 
fe71 
015d 
0011 
ffdd 
021e 
fdd9 
00b3 
fedb 
012b 
ff83 
00a9 
ff42 
ff47 
ffa6 
fffc 
fec2 
0047 
fee0 
0155 
003a 
00cf 
ff70 
01ba 
007b 
fe61 
fcbd 
0197 
ffbf 
00d6 
fe35 
fecf 
0128 
0069 
ffcc 
fe20 
0102 
0189 
01e4 
012f 
ff7e 
fe34 
0140 
fea7 
0086 
fdd8 
0082 
0144 
ffd8 
0067 
0074 
01ae 
01b2 
0053 
004b 
00f2 
0250 
fe93 
0127 
ffd5 
01b7 
fe9f 
012a 
01c8 
003d 
01ab 
fe1e 
ff2a 
0288 
fe17 
fef8 
ff55 
021d 
fde2 
fd36 
ffe1 
0179 
fee2 
fbdc 
fe70 
0066 
008d 
ffac 
0011 
0074 
0158 
feae 
ff1f 
fec5 
010e 
00c7 
0102 
00ae 
ff59 
ff31 
ffa0 
00f5 
00c2 
024b 
01a3 
00b2 
0032 
fe70 
00a6 
00ad 
fed7 
ff3a 
00e0 
fe81 
febe 
00b4 
00fe 
fe9c 
fff1 
ff5d 
0013 
febc 
fecc 
012a 
0170 
0187 
00f8 
0118 
00c2 
0128 
0069 
00f0 
fead 
0443 
01b9 
0014 
0061 
feff 
feba 
ffc7 
ff97 
ff7b 
ff6b 
0043 
01e2 
ff30 
ff0a 
fe12 
0494 
018e 
fe6f 
fea5 
0059 
ff2c 
fdc4 
fe11 
00a7 
ffef 
fe8a 
fd86 
003d 
010e 
fff0 
ff25 
00b4 
011c 
fdc1 
fd54 
fe96 
fdf8 
0063 
fdf4 
ff2f 
ff87 
000d 
ffe8 
fcab 
0028 
0235 
006a 
fe38 
fd16 
fee7 
ff71 
ff47 
ff1f 
ff8a 
fe21 
0036 
ff5b 
01b6 
ffed 
fed7 
fe4d 
0101 
020b 
0055 
ff30 
ffef 
ffec 
0205 
0299 
017b 
ff54 
ff3d 
01b1 
0374 
fefa 
fdd8 
0166 
00ce 
00f1 
ff22 
ff5e 
fdce 
fea1 
0226 
feb0 
023c 
fdc2 
ff55 
00f5 
0183 
01ce 
fefa 
fe90 
029b 
00ba 
019a 
fd6a 
fff3 
02b0 
0070 
fed3 
ff0f 
fcf8 
0062 
0111 
0140 
fe60 
016f 
ff9a 
ffb6 
0073 
008e 
ffb9 
ffb0 
ff76 
004e 
fe73 
00c8 
0010 
fe24 
ffcf 
0137 
fea5 
fe29 
ffd7 
ffc1 
002f 
fea3 
ff84 
0038 
ff43 
01b6 
00a2 
015c 
ff98 
00ef 
007d 
0068 
ff36 
008e 
0032 
00bb 
fe09 
fe90 
004a 
00d7 
001d 
feda 
ff9a 
fe38 
ffbd 
ff9a 
fe68 
ff5b 
fddc 
003d 
fdf0 
ff85 
011e 
01f1 
0264 
0012 
fef6 
ff2c 
0097 
0044 
0097 
ff6c 
ff34 
034a 
fef4 
ff01 
fbe0 
fec8 
005f 
0036 
fdb0 
fe85 
fd05 
ffce 
fe22 
fdfe 
fe83 
febc 
0070 
ffa7 
fed5 
fd88 
fe16 
009f 
ffa3 
fd14 
fea9 
0070 
015d 
fcc6 
fc54 
ff4f 
00f2 
ff83 
fd29 
fe24 
00df 
0042 
ff25 
ff15 
fe4f 
005e 
fe37 
0137 
fdb7 
00e0 
03ab 
005a 
0017 
fede 
0554 
0233 
ff88 
00f6 
0484 
0500 
fdb0 
00e4 
016a 
0428 
0129 
0027 
feb6 
ffc8 
fdc1 
ff95 
feab 
fe77 
fd7a 
0023 
ffce 
01c3 
ffcf 
fd19 
fd7a 
01c0 
049c 
feca 
fe5c 
ff71 
02cc 
00c2 
ffb5 
fd6c 
0179 
01af 
fd62 
ffff 
fe71 
ff93 
ffc3 
fe5b 
fe2f 
ffe2 
ffa5 
ff4c 
00de 
ffb1 
0125 
0114 
fe41 
ffaf 
ff15 
ff1e 
ffb2 
fd4a 
0040 
0164 
002c 
006e 
feb5 
00b1 
001f 
0036 
fe86 
006b 
012d 
00d2 
00f7 
fe82 
ff89 
00a9 
0097 
007d 
ff98 
0177 
ffd6 
002b 
0272 
0155 
feda 
ffc0 
0100 
006c 
fe35 
ffae 
00ca 
fe4a 
ff99 
fd80 
ff04 
fe49 
0076 
0018 
fe73 
fd07 
0089 
03af 
001b 
fd81 
fe93 
01fa 
00ac 
fdb7 
fdbe 
00eb 
01c5 
fe10 
ff1e 
00e8 
ff41 
ffcf 
0056 
fe8a 
00d7 
00d1 
03fa 
013b 
0098 
0062 
0321 
02e5 
0025 
0248 
0095 
fe65 
fd6d 
fc96 
0071 
fd56 
fd87 
ffae 
0110 
007f 
ffe2 
016b 
004e 
001c 
ff08 
01a2 
0117 
ffec 
fe93 
ffdc 
ffec 
ff1c 
ff2d 
ff3e 
ffcd 
fe95 
ff5e 
0360 
020e 
00d4 
00ae 
0411 
01dc 
00cb 
fef2 
0311 
0011 
0080 
fca9 
fd3b 
fee2 
009c 
ff41 
0197 
01ec 
fd6a 
fc0a 
fbfa 
fd45 
0033 
fdfd 
fcbe 
ff11 
fef2 
fff9 
ffc0 
01cc 
0118 
01a1 
ff19 
ffe6 
0404 
00a2 
ff62 
00b2 
007c 
00d0 
ff95 
01c1 
ff9b 
01f7 
005c 
ffcf 
01ab 
0186 
ff5d 
ffd2 
0062 
0078 
fe06 
fffd 
fdeb 
fea9 
ff4f 
ff7e 
ff83 
000d 
ff82 
ff97 
00fa 
00d0 
0056 
fee9 
ffb1 
0052 
fe6d 
ffaa 
0154 
006c 
fffc 
02a1 
029a 
02f3 
002a 
001d 
0117 
0037 
ff39 
fec9 
00f4 
ffa4 
0052 
fecf 
01ea 
0051 
fe7d 
ff7c 
fe51 
fdd9 
ff9a 
003c 
fdc4 
fbe4 
fd33 
ffa0 
fdf0 
febb 
fe28 
007f 
013d 
ff42 
0053 
0199 
0115 
00bd 
00f2 
0044 
ffc3 
fdf6 
00b0 
0069 
fe2f 
fe13 
ff5d 
00d9 
0068 
0160 
04a1 
041b 
01eb 
fee8 
fee4 
01b0 
02c9 
0147 
0084 
ff62 
fd79 
feb8 
feaa 
02d7 
ff95 
00b2 
fddc 
fe49 
0020 
0178 
01ab 
009e 
005c 
fe65 
fd8b 
ffcf 
ff2c 
000f 
fda6 
fc55 
fe37 
fdca 
fdee 
00c9 
ff21 
fe2e 
fee2 
ffaa 
0144 
ff4a 
0109 
0049 
007d 
fe1a 
010f 
00ee 
01b9 
0183 
00b3 
ff51 
002d 
018c 
fe45 
ff80 
fc07 
fbf0 
fefe 
fd0c 
00ac 
fdf5 
ffce 
fd17 
ff5f 
0169 
0057 
ffb6 
0207 
026f 
ffc3 
ff07 
0146 
0025 
ff09 
0187 
0056 
002e 
0247 
00cb 
fe4d 
ff0e 
0036 
0203 
01cd 
006a 
fe76 
ff03 
ff3e 
002d 
0024 
013c 
ff66 
003c 
fe8e 
ff19 
fdbe 
ff3e 
0075 
008b 
fed4 
ffaf 
fff2 
024f 
01ac 
017c 
0147 
00d0 
02da 
000c 
fef6 
fd88 
ffac 
0005 
009d 
0061 
0049 
febf 
ff0b 
ff18 
ff2a 
fe97 
00e1 
01e6 
0314 
fd88 
fe18 
fed0 
fdb8 
fe17 
ffeb 
0001 
fcd0 
fd75 
fce5 
ffdd 
0219 
ff31 
0077 
fe54 
011e 
013c 
00f1 
0000 
018e 
0143 
ff05 
fe7b 
fe87 
fe87 
018c 
0025 
feae 
ff42 
011f 
02b4 
0291 
036d 
01a9 
0081 
fd84 
fedd 
ffca 
fd87 
fd4d 
fc50 
fcf5 
fd95 
fe96 
fee4 
00f7 
0076 
0179 
01f6 
ff5e 
0113 
0029 
ff52 
01ea 
fefa 
ff77 
00e1 
ff6c 
feff 
ff90 
0134 
fee7 
00a5 
01b3 
01a3 
014c 
00cd 
014d 
01ab 
02ca 
ff45 
008d 
0052 
ff1b 
ffa2 
fef7 
00d1 
0167 
0109 
fe37 
fee8 
003d 
fd13 
fd0a 
fc42 
ff88 
ff12 
fe14 
fe66 
0148 
017c 
0108 
fdc1 
013a 
028b 
0085 
fe69 
fe99 
ff14 
fee6 
feae 
ff53 
0082 
016c 
004c 
00f1 
01c0 
ffb0 
0217 
0185 
fe3d 
002a 
0076 
ff36 
0088 
fe98 
fe07 
fd8c 
ffaa 
0015 
ff80 
ff78 
006d 
0175 
00b1 
0095 
ff45 
0087 
ff01 
feb6 
ff9c 
0060 
0043 
fff8 
0044 
ffff 
0217 
01cc 
002f 
0165 
feb1 
fdf7 
fea5 
fdd2 
fdcb 
0151 
0140 
ff95 
00aa 
ffc5 
fdf7 
ffc4 
ff66 
ff13 
00d1 
fdee 
fdb5 
fd4e 
fea8 
fbdf 
fdc9 
ff58 
fe08 
fd5f 
0023 
033b 
018f 
021c 
0202 
01f3 
fd31 
fe6c 
fe0e 
020e 
022b 
fdd1 
feb9 
fdf1 
00de 
0038 
0254 
0048 
ff4b 
00cc 
ff3b 
0198 
04bc 
06f6 
06ae 
0340 
00da 
0019 
02ad 
0127 
0053 
ffa7 
ff7a 
fe0a 
001f 
0075 
ffce 
fece 
ff3b 
ffdc 
fffb 
ff40 
fe36 
013d 
0142 
ff3d 
fef3 
fe12 
fe4b 
fee1 
fe89 
fd2f 
fe81 
fdaa 
fee8 
ffcf 
fcd7 
fc92 
fa93 
fe4c 
fd5b 
0072 
feb7 
fc09 
fe21 
fe95 
008a 
021a 
024b 
0089 
010c 
022c 
0037 
0311 
00b7 
01a0 
0004 
ff73 
fdc0 
ff82 
00d2 
0064 
0199 
ff22 
01c3 
003c 
ff39 
ff73 
0024 
002f 
fe94 
01c5 
011e 
00b4 
0086 
00c6 
ff11 
008f 
017b 
0138 
01d3 
0181 
ffcc 
0179 
0169 
0097 
00ab 
0050 
0018 
00b2 
ff01 
fefb 
fea6 
0103 
0137 
0115 
ff38 
ff3f 
0005 
ff4c 
ff1a 
ff10 
0093 
0166 
02c7 
03cb 
ffcd 
ff49 
028b 
01c7 
0039 
ff8b 
ff99 
fc9d 
fb28 
fb70 
001d 
ff60 
fcec 
ff74 
ff12 
00ad 
00e9 
0355 
049c 
00ab 
ff4b 
00b8 
0105 
0092 
0127 
fe80 
fe18 
fd7f 
ff5f 
ff4c 
001c 
fe1f 
feef 
fe64 
ff29 
ff74 
fe9b 
0025 
ff02 
ffce 
fe89 
ff6a 
fe83 
fe78 
ff00 
00b2 
ff6d 
fc4f 
0048 
ff97 
01c6 
ff07 
fdd8 
fea8 
ffb9 
0192 
00f4 
fceb 
006a 
011a 
0254 
00e4 
ff79 
0238 
028e 
018d 
008a 
fdb5 
0427 
02db 
014d 
fd03 
0089 
0525 
00ac 
0064 
fdb2 
ffd6 
01ee 
0056 
00ed 
0387 
ff3e 
ffae 
0275 
0490 
03cd 
fd27 
fc86 
0199 
04ed 
ff4f 
fbde 
ff0a 
02f7 
00b8 
fc69 
fb32 
0024 
007b 
feab 
fd9c 
fde7 
ffc1 
ff88 
000e 
ffe6 
fffd 
0072 
0093 
ffb7 
00c6 
014a 
002e 
ff29 
0022 
ff7c 
0119 
ffa4 
ff15 
0197 
0185 
00d0 
fde9 
005a 
0038 
0023 
fe7b 
0073 
004a 
0057 
ff6d 
fea1 
fef0 
ff20 
ffb0 
fe94 
0064 
ffe6 
00eb 
feec 
fee4 
ffde 
01df 
005c 
01fe 
ff96 
0014 
fe47 
0187 
0096 
0015 
fff2 
fe11 
0053 
fef5 
009e 
0086 
fce2 
ffb4 
00a8 
032d 
004c 
fd9a 
ff36 
02ad 
0037 
fcd2 
fcd9 
005b 
ff8f 
ff2d 
fd39 
fec2 
ffb5 
fdf0 
fdef 
fd7d 
fd4e 
ffb8 
ffea 
014f 
001d 
0148 
ffd4 
0290 
0285 
fee2 
fc69 
fdfa 
fe06 
fd9e 
01f1 
0308 
03c8 
ff64 
04a3 
0327 
0182 
01b6 
00d8 
0069 
ff58 
ffd3 
ff37 
0051 
fe68 
fea0 
fea1 
ff07 
fef0 
fdd7 
014b 
0174 
007d 
01aa 
03be 
018d 
ff67 
fe13 
02e7 
ff51 
ffa6 
ff00 
fe99 
0099 
0144 
00da 
01ee 
0008 
fe9c 
fe54 
fbff 
fedc 
ff1c 
fe45 
fdfc 
fdee 
ff70 
ff92 
00d3 
ffdf 
0031 
00fa 
0124 
02dc 
0121 
ffea 
fe54 
008c 
ff45 
fed9 
ffed 
0140 
ff48 
0098 
016d 
ff42 
003c 
ffd9 
0166 
0205 
fea2 
fe7d 
feaa 
ff4c 
fe7a 
0025 
0157 
0032 
0057 
fff1 
026f 
010c 
0062 
00c8 
01d5 
0015 
00a6 
ffc1 
ffdf 
fe27 
01f5 
0195 
0035 
017a 
00a9 
0152 
0022 
fdc2 
034b 
0311 
fde9 
fdf6 
0206 
015c 
0049 
0493 
0550 
0381 
02c0 
047e 
03b9 
0108 
ff04 
ff87 
fedf 
fd00 
fb8a 
fd32 
fd50 
fb5b 
ff1b 
011e 
017e 
ffc2 
03af 
048e 
00de 
febc 
0401 
0303 
fd0b 
fde4 
ff62 
ffd3 
fd40 
ffa5 
00a0 
0100 
ff0e 
fcda 
fe34 
00f7 
01db 
feeb 
fd56 
00b9 
026a 
01cc 
fd7a 
ff3f 
fe8e 
fe39 
0075 
fddb 
fe84 
fec0 
009f 
ffdd 
ffb4 
00a3 
0337 
0310 
ffd8 
0449 
01b2 
ffaa 
03a6 
004a 
0511 
01a1 
001a 
029b 
ff07 
0545 
fe05 
0073 
ffcf 
0006 
03ab 
0085 
ff1b 
00ed 
00df 
01d4 
ffb3 
fdc0 
ffbf 
ff27 
ffe4 
00ce 
feca 
fed6 
fe68 
0356 
00da 
fe93 
fe47 
fd19 
01b2 
019f 
fc99 
fed7 
ff2d 
019d 
00da 
fe34 
fe5d 
ff14 
015b 
0142 
0180 
00c8 
0017 
0015 
008f 
feab 
ff0f 
ff5d 
fe17 
feac 
00fd 
0158 
006a 
feb1 
012a 
ff8f 
00bf 
ffbc 
fdfc 
ff88 
ff31 
00cb 
fefe 
0023 
ff34 
0125 
01d3 
01eb 
ff6a 
ff94 
0010 
026c 
00b1 
004f 
0018 
010c 
0030 
018a 
ff20 
fe2b 
01d2 
0275 
0199 
fd91 
0020 
ff0c 
fe45 
0017 
fe7d 
000f 
006f 
0107 
01a6 
fec9 
ffd3 
ffc4 
fe63 
00f6 
fdd6 
0052 
ffe1 
fd27 
fdde 
fe7c 
00be 
fd85 
fdba 
fe98 
fca9 
fdc9 
0157 
0230 
01fa 
fe8f 
0163 
00b8 
fe10 
01a3 
fe69 
fe5c 
ffe2 
0052 
ff5b 
ff89 
fe75 
fe71 
0045 
0209 
fed8 
0120 
0069 
fe5e 
fefa 
0151 
0287 
056c 
0403 
fdc4 
fd4f 
ff42 
006d 
0390 
0190 
022d 
00e7 
febd 
00cd 
0177 
ff7b 
0180 
ffb5 
fda8 
fd45 
015d 
0002 
0153 
fde1 
fdda 
ffe2 
ff33 
0100 
fdaa 
fcde 
014a 
ff22 
ffca 
017a 
febd 
ffc8 
01da 
ff6a 
fd0d 
fddc 
fe7b 
010d 
fed8 
fdd3 
fdc8 
fedc 
fe38 
00a9 
fe9f 
fd3f 
0049 
fecd 
00bc 
03fb 
0199 
fdd6 
ff39 
fc6d 
0063 
02f8 
0062 
012d 
ffe2 
010e 
ff85 
fe2a 
fea5 
ff57 
0091 
0218 
ffdc 
0093 
0044 
fed9 
fdd3 
01bf 
0186 
0023 
00c2 
feb4 
fe2f 
fecc 
0072 
0251 
00fe 
ff24 
fe76 
0047 
0233 
0088 
006c 
0190 
0277 
0134 
0025 
ff2c 
004b 
ff84 
ff58 
00f0 
007c 
ffbc 
0103 
0113 
feee 
fe42 
005a 
0112 
0154 
021d 
0087 
00c2 
00a7 
0053 
0002 
0048 
ffdb 
00cf 
01ad 
fe35 
fdf6 
ffec 
ffff 
0262 
02bd 
fd37 
fed8 
fdd0 
fef6 
0288 
ffcc 
fec4 
fee3 
fd13 
00b6 
fdd4 
fd47 
fef7 
0041 
ffbc 
fcc2 
fc71 
00c7 
02cf 
0001 
fe2c 
ff5c 
00c6 
fffa 
000c 
009e 
fef9 
fe50 
00dd 
ffb1 
ffed 
010f 
fffa 
fe60 
fee3 
fe48 
0378 
0287 
0168 
fde6 
03a0 
048a 
ffbd 
ff1c 
fe60 
03f8 
0274 
fd45 
fdfb 
011f 
0198 
ffbe 
fca3 
001e 
0022 
0077 
ff34 
fecb 
00b4 
fe82 
febd 
01fc 
00ad 
ff49 
ffcf 
fff7 
038f 
02a4 
fd9e 
ff30 
0060 
01bf 
ff98 
fdca 
fe2e 
0108 
0072 
fbbd 
fde9 
ff13 
fef5 
ff88 
fc28 
fcbb 
0026 
ffe6 
fe9c 
ffe4 
fee2 
ffb6 
fffe 
fdab 
febb 
ffa0 
ffd6 
ff2d 
feb5 
0100 
012c 
0179 
0133 
ff37 
fee1 
fff3 
006e 
0017 
ffea 
fe56 
ff7c 
00e6 
004a 
0064 
ff89 
0090 
ffac 
fedb 
006f 
ff44 
0117 
0275 
fff7 
fe15 
ffef 
0354 
01f5 
feb2 
0166 
024d 
0143 
00f8 
ff71 
0018 
fe9d 
febf 
ffc4 
fe31 
fd46 
00f7 
027d 
008a 
feef 
01ae 
0408 
ff63 
fdcd 
ff2b 
0186 
fea9 
fe6e 
fe4b 
fdb6 
fde5 
fda6 
feda 
fe7a 
fc33 
ff83 
0068 
0057 
fdbf 
0188 
001f 
fd49 
fefb 
fdc2 
0109 
018f 
ff2b 
feec 
fdca 
01a1 
ff08 
0061 
0140 
00a8 
009b 
0244 
03ec 
01aa 
0032 
ff2c 
fe89 
0005 
ff2c 
00d8 
0100 
004f 
ffff 
ff4f 
ff93 
ffbf 
01bc 
fe05 
fd6f 
0023 
0001 
0106 
fecf 
fe55 
fe81 
ff65 
ff90 
feda 
fe6e 
fd72 
0234 
009c 
006b 
00d9 
0091 
015a 
0114 
fe68 
fcfe 
fdee 
000a 
0259 
02d5 
0117 
0096 
ff49 
ff52 
024c 
02b2 
ffb6 
fc56 
fe57 
0063 
ffc3 
0034 
fcd4 
fe6a 
fe9e 
ff83 
00c6 
014b 
002e 
ffab 
fe89 
fec5 
ff4a 
005c 
fecb 
fe0a 
fe52 
0024 
fff0 
ffb6 
00d8 
0046 
0002 
01ad 
0018 
ffcc 
0150 
ff4d 
ff80 
fe64 
0020 
004b 
fffc 
fe93 
fe12 
0061 
00cf 
0044 
ff06 
004f 
00da 
fefc 
fec1 
0153 
ffdb 
fe2a 
fe95 
ffd4 
0043 
ffbf 
ff63 
ffbd 
01ed 
fe92 
012d 
001f 
ff6a 
fe5a 
ffba 
016d 
ff10 
ff54 
febc 
fe98 
00ec 
028f 
0297 
fe0f 
fcb9 
0078 
0027 
01b2 
fc82 
fcab 
feef 
fe62 
ffde 
fe5c 
fde6 
ffe9 
ffbc 
00d5 
